unsigned char model_tflite[] = {
  0x1c, 0x00, 0x00, 0x00, 0x54, 0x46, 0x4c, 0x33, 0x00, 0x00, 0x12, 0x00,
  0x1c, 0x00, 0x04, 0x00, 0x08, 0x00, 0x0c, 0x00, 0x10, 0x00, 0x14, 0x00,
  0x00, 0x00, 0x18, 0x00, 0x12, 0x00, 0x00, 0x00, 0x03, 0x00, 0x00, 0x00,
  0xe8, 0x0a, 0x00, 0x00, 0xfc, 0x03, 0x00, 0x00, 0xe4, 0x03, 0x00, 0x00,
  0x3c, 0x00, 0x00, 0x00, 0x04, 0x00, 0x00, 0x00, 0x01, 0x00, 0x00, 0x00,
  0x0c, 0x00, 0x00, 0x00, 0x08, 0x00, 0x0c, 0x00, 0x04, 0x00, 0x08, 0x00,
  0x08, 0x00, 0x00, 0x00, 0x08, 0x00, 0x00, 0x00, 0x0b, 0x00, 0x00, 0x00,
  0x13, 0x00, 0x00, 0x00, 0x6d, 0x69, 0x6e, 0x5f, 0x72, 0x75, 0x6e, 0x74,
  0x69, 0x6d, 0x65, 0x5f, 0x76, 0x65, 0x72, 0x73, 0x69, 0x6f, 0x6e, 0x00,
  0x0c, 0x00, 0x00, 0x00, 0x9c, 0x03, 0x00, 0x00, 0x94, 0x03, 0x00, 0x00,
  0x84, 0x01, 0x00, 0x00, 0x74, 0x01, 0x00, 0x00, 0x68, 0x01, 0x00, 0x00,
  0x60, 0x01, 0x00, 0x00, 0x30, 0x01, 0x00, 0x00, 0xa0, 0x00, 0x00, 0x00,
  0x50, 0x00, 0x00, 0x00, 0x30, 0x00, 0x00, 0x00, 0x1c, 0x00, 0x00, 0x00,
  0x04, 0x00, 0x00, 0x00, 0xaa, 0xfe, 0xff, 0xff, 0x04, 0x00, 0x00, 0x00,
  0x05, 0x00, 0x00, 0x00, 0x31, 0x2e, 0x35, 0x2e, 0x30, 0x00, 0x00, 0x00,
  0xbe, 0xfe, 0xff, 0xff, 0x04, 0x00, 0x00, 0x00, 0x04, 0x00, 0x00, 0x00,
  0xdf, 0xf9, 0xff, 0xff, 0xce, 0xfe, 0xff, 0xff, 0x04, 0x00, 0x00, 0x00,
  0x10, 0x00, 0x00, 0x00, 0x26, 0xd9, 0x59, 0x00, 0x7f, 0xb7, 0x14, 0xff,
  0x08, 0xc6, 0x09, 0x4b, 0xc7, 0xbf, 0x3b, 0xf1, 0xea, 0xfe, 0xff, 0xff,
  0x04, 0x00, 0x00, 0x00, 0x40, 0x00, 0x00, 0x00, 0x00, 0x00, 0x00, 0x00,
  0x00, 0x00, 0x00, 0x00, 0x09, 0xfe, 0xff, 0xff, 0x69, 0xff, 0xff, 0xff,
  0xa1, 0x23, 0x00, 0x00, 0xe0, 0xfb, 0xff, 0xff, 0x09, 0xfd, 0xff, 0xff,
  0xc1, 0xfd, 0xff, 0xff, 0x00, 0x00, 0x00, 0x00, 0x00, 0x00, 0x00, 0x00,
  0x23, 0xfe, 0xff, 0xff, 0x51, 0x00, 0x00, 0x00, 0x64, 0xff, 0xff, 0xff,
  0x00, 0x00, 0x00, 0x00, 0x33, 0xfc, 0xff, 0xff, 0xf0, 0xfd, 0xff, 0xff,
  0x36, 0xff, 0xff, 0xff, 0x04, 0x00, 0x00, 0x00, 0x80, 0x00, 0x00, 0x00,
  0xe5, 0x2e, 0x00, 0x00, 0x00, 0x00, 0x00, 0x00, 0x00, 0x00, 0x00, 0x00,
  0x67, 0xf9, 0xff, 0xff, 0x00, 0x00, 0x00, 0x00, 0x00, 0x00, 0x00, 0x00,
  0x51, 0xf3, 0xff, 0xff, 0x00, 0x00, 0x00, 0x00, 0x14, 0xf2, 0xff, 0xff,
  0x63, 0xfc, 0xff, 0xff, 0x51, 0xd6, 0xff, 0xff, 0x00, 0x00, 0x00, 0x00,
  0x07, 0x08, 0x00, 0x00, 0x00, 0x00, 0x00, 0x00, 0x52, 0x23, 0x00, 0x00,
  0x00, 0x00, 0x00, 0x00, 0x00, 0x00, 0x00, 0x00, 0x00, 0x00, 0x00, 0x00,
  0x00, 0x00, 0x00, 0x00, 0x88, 0xf8, 0xff, 0xff, 0x45, 0x33, 0x00, 0x00,
  0x00, 0x00, 0x00, 0x00, 0x54, 0xf8, 0xff, 0xff, 0x00, 0x00, 0x00, 0x00,
  0x00, 0x00, 0x00, 0x00, 0xb5, 0xf5, 0xff, 0xff, 0x00, 0x00, 0x00, 0x00,
  0x1d, 0xf7, 0xff, 0xff, 0x4a, 0xfa, 0xff, 0xff, 0x74, 0xfe, 0xff, 0xff,
  0xb4, 0x02, 0x00, 0x00, 0xd3, 0xf4, 0xff, 0xff, 0xc2, 0xff, 0xff, 0xff,
  0x04, 0x00, 0x00, 0x00, 0x20, 0x00, 0x00, 0x00, 0x34, 0xc3, 0xcb, 0x06,
  0xda, 0xdd, 0x7e, 0xee, 0x7f, 0x01, 0x75, 0xec, 0x42, 0xef, 0x46, 0xe7,
  0xce, 0xc9, 0xcb, 0x4a, 0x61, 0xc8, 0x4a, 0xe6, 0xf1, 0x67, 0xde, 0x58,
  0x6f, 0xff, 0x33, 0x6e, 0x58, 0xfd, 0xff, 0xff, 0x5c, 0xfd, 0xff, 0xff,
  0x04, 0x00, 0x06, 0x00, 0x04, 0x00, 0x00, 0x00, 0x00, 0x00, 0x06, 0x00,
  0x08, 0x00, 0x04, 0x00, 0x06, 0x00, 0x00, 0x00, 0x04, 0x00, 0x00, 0x00,
  0x00, 0x02, 0x00, 0x00, 0x17, 0x05, 0x09, 0x13, 0x0b, 0x02, 0xff, 0x0f,
  0xe7, 0x11, 0xf7, 0x0e, 0xed, 0xec, 0xef, 0xec, 0xf2, 0xe6, 0x02, 0xfe,
  0xed, 0xe9, 0x19, 0x04, 0xf3, 0xe9, 0xf4, 0xe7, 0x18, 0x00, 0xe8, 0xe8,
  0xe9, 0x15, 0x14, 0x1a, 0xeb, 0xe9, 0xed, 0x09, 0x12, 0x01, 0xee, 0x0c,
  0x0c, 0x0c, 0xf3, 0xe9, 0xeb, 0x0e, 0xeb, 0x05, 0xef, 0x01, 0xeb, 0x11,
  0x00, 0xf3, 0xf8, 0x0d, 0x04, 0xfa, 0xea, 0xff, 0xd4, 0x00, 0xe8, 0x01,
  0x11, 0xe7, 0x16, 0x1a, 0x17, 0x08, 0x64, 0xfb, 0x0c, 0xf1, 0xdd, 0x0e,
  0xed, 0xf0, 0x0a, 0xf5, 0xf6, 0xed, 0x0c, 0x13, 0x18, 0x1c, 0xf9, 0x25,
  0xf4, 0xed, 0x19, 0xfe, 0x07, 0xfc, 0xf5, 0xee, 0xeb, 0xfe, 0x0f, 0xfe,
  0x02, 0xe6, 0x1b, 0xf3, 0x0a, 0x09, 0xf6, 0xfd, 0xe5, 0xf5, 0x0d, 0xfc,
  0xfe, 0x01, 0xfe, 0xf0, 0xe9, 0xfa, 0x19, 0xef, 0xfd, 0x08, 0xee, 0xfb,
  0x29, 0xfc, 0xf4, 0x08, 0x02, 0xf9, 0x9b, 0x0e, 0x83, 0x0e, 0xb4, 0xff,
  0x2e, 0xff, 0x29, 0xf9, 0x1b, 0x06, 0x17, 0xdd, 0x23, 0xff, 0xd4, 0x04,
  0xfe, 0xb6, 0x0e, 0xd9, 0x7f, 0x06, 0x32, 0x8e, 0xed, 0xed, 0x01, 0x0a,
  0xf8, 0x0d, 0xf3, 0xe9, 0x1a, 0xe9, 0xef, 0x0a, 0xec, 0x18, 0x15, 0xfc,
  0xfb, 0xe5, 0xf9, 0xfe, 0x0f, 0x19, 0xff, 0x0e, 0x03, 0xeb, 0xec, 0xe9,
  0xf2, 0xfe, 0xff, 0xf9, 0x04, 0xfc, 0x17, 0xf7, 0xf1, 0xeb, 0xf7, 0xfe,
  0x0b, 0xfd, 0x3e, 0xf6, 0xfc, 0x0a, 0x01, 0xeb, 0x04, 0xeb, 0xec, 0xfc,
  0xfd, 0x03, 0xf7, 0xed, 0xec, 0x09, 0xfb, 0x06, 0x1c, 0xfd, 0xfd, 0x1c,
  0xff, 0xe7, 0xf3, 0x08, 0x0b, 0xe6, 0xfb, 0x06, 0x0e, 0x13, 0xe4, 0x0c,
  0x00, 0xf0, 0x14, 0xfd, 0x0d, 0x0b, 0xe8, 0x18, 0xea, 0xea, 0xfd, 0xf9,
  0x0e, 0x06, 0x04, 0xf8, 0xe4, 0x05, 0x08, 0xfd, 0xe9, 0xe5, 0xe8, 0x10,
  0xf8, 0x0a, 0xfb, 0x11, 0x0a, 0x07, 0xe6, 0xf1, 0x1b, 0xeb, 0xe6, 0x0e,
  0xf2, 0xed, 0x04, 0xf8, 0x0e, 0x0f, 0xf7, 0xff, 0xfc, 0xf0, 0x18, 0xfa,
  0x17, 0x17, 0x16, 0x11, 0xf4, 0xee, 0x16, 0x03, 0xe6, 0xfa, 0xf5, 0x14,
  0x14, 0xf3, 0xf7, 0x09, 0x0a, 0xe9, 0x05, 0xf7, 0x14, 0xfb, 0x0e, 0xff,
  0xe9, 0xe7, 0xec, 0x1b, 0xfd, 0xfd, 0xfd, 0xfa, 0xf3, 0xf2, 0xf3, 0xff,
  0x0b, 0xf6, 0x17, 0xfb, 0xea, 0xe5, 0xf4, 0xec, 0xf7, 0xf9, 0x0e, 0x0a,
  0xe3, 0xe5, 0x0d, 0x1b, 0xe8, 0x12, 0x04, 0x00, 0xf8, 0x17, 0xfb, 0x02,
  0xf5, 0x11, 0xf8, 0x0b, 0xe5, 0x05, 0xe6, 0xff, 0xe6, 0x1b, 0xf4, 0xed,
  0x11, 0xeb, 0xfd, 0x06, 0xf3, 0xf5, 0x1a, 0xfc, 0x0a, 0x14, 0x02, 0xf3,
  0xf6, 0x15, 0xf7, 0x19, 0xea, 0xef, 0x18, 0x05, 0xe8, 0x10, 0x04, 0x15,
  0x1d, 0xf1, 0x0b, 0xef, 0xec, 0xff, 0xf2, 0xeb, 0x05, 0x06, 0x04, 0x0f,
  0xe9, 0xfd, 0xed, 0xf1, 0x02, 0x10, 0xf2, 0x0f, 0xea, 0x0b, 0xe5, 0xfd,
  0x12, 0x17, 0x03, 0xed, 0xfd, 0x01, 0x03, 0x05, 0x15, 0xe9, 0xf1, 0xe8,
  0xe9, 0xe6, 0x04, 0x10, 0xec, 0xf0, 0xea, 0x11, 0x1b, 0xf0, 0xe5, 0x04,
  0x1a, 0xe5, 0xef, 0x0f, 0x0d, 0x04, 0xea, 0x00, 0x02, 0xea, 0x11, 0x03,
  0xf4, 0xf1, 0x0c, 0x01, 0xf4, 0x15, 0xff, 0x06, 0xf1, 0xf0, 0x0e, 0x1b,
  0xeb, 0x09, 0x0a, 0xf2, 0x12, 0xfd, 0x27, 0x12, 0xfb, 0xef, 0xe3, 0x0f,
  0x01, 0x02, 0x10, 0x1c, 0xe8, 0x13, 0x0d, 0x15, 0x0f, 0x1a, 0x04, 0x0b,
  0x14, 0xf2, 0x03, 0x0f, 0x0c, 0xfc, 0xfa, 0xe5, 0xfd, 0x15, 0x12, 0x10,
  0x0f, 0x0b, 0xfc, 0xed, 0xf3, 0x0e, 0xf7, 0xf9, 0x18, 0xfe, 0xe8, 0x15,
  0xf4, 0xf2, 0xf3, 0x11, 0xe6, 0xf1, 0x0c, 0xec, 0x11, 0x19, 0xf0, 0x03,
  0x7c, 0xff, 0xff, 0xff, 0x80, 0xff, 0xff, 0xff, 0x0f, 0x00, 0x00, 0x00,
  0x54, 0x4f, 0x43, 0x4f, 0x20, 0x43, 0x6f, 0x6e, 0x76, 0x65, 0x72, 0x74,
  0x65, 0x64, 0x2e, 0x00, 0x01, 0x00, 0x00, 0x00, 0x04, 0x00, 0x00, 0x00,
  0x88, 0xf9, 0xff, 0xff, 0x48, 0x01, 0x00, 0x00, 0x3c, 0x01, 0x00, 0x00,
  0x30, 0x01, 0x00, 0x00, 0x04, 0x00, 0x00, 0x00, 0x05, 0x00, 0x00, 0x00,
  0x04, 0x01, 0x00, 0x00, 0xb8, 0x00, 0x00, 0x00, 0x70, 0x00, 0x00, 0x00,
  0x28, 0x00, 0x00, 0x00, 0x04, 0x00, 0x00, 0x00, 0x1a, 0xff, 0xff, 0xff,
  0x02, 0x00, 0x00, 0x00, 0x10, 0x00, 0x00, 0x00, 0x04, 0x00, 0x00, 0x00,
  0x01, 0x00, 0x00, 0x00, 0x0b, 0x00, 0x00, 0x00, 0x01, 0x00, 0x00, 0x00,
  0x00, 0x00, 0x00, 0x00, 0xca, 0xff, 0xff, 0xff, 0x00, 0x00, 0x00, 0x08,
  0x1c, 0x00, 0x00, 0x00, 0x10, 0x00, 0x00, 0x00, 0x08, 0x00, 0x00, 0x00,
  0x04, 0x00, 0x04, 0x00, 0x04, 0x00, 0x00, 0x00, 0x01, 0x00, 0x00, 0x00,
  0x00, 0x00, 0x00, 0x00, 0x03, 0x00, 0x00, 0x00, 0x07, 0x00, 0x00, 0x00,
  0x08, 0x00, 0x00, 0x00, 0x09, 0x00, 0x00, 0x00, 0x00, 0x00, 0x0e, 0x00,
  0x14, 0x00, 0x00, 0x00, 0x08, 0x00, 0x0c, 0x00, 0x07, 0x00, 0x10, 0x00,
  0x0e, 0x00, 0x00, 0x00, 0x00, 0x00, 0x00, 0x08, 0x1c, 0x00, 0x00, 0x00,
  0x10, 0x00, 0x00, 0x00, 0x04, 0x00, 0x00, 0x00, 0xba, 0xff, 0xff, 0xff,
  0x00, 0x00, 0x00, 0x01, 0x01, 0x00, 0x00, 0x00, 0x07, 0x00, 0x00, 0x00,
  0x03, 0x00, 0x00, 0x00, 0x04, 0x00, 0x00, 0x00, 0x05, 0x00, 0x00, 0x00,
  0x06, 0x00, 0x00, 0x00, 0x00, 0x00, 0x0e, 0x00, 0x16, 0x00, 0x00, 0x00,
  0x08, 0x00, 0x0c, 0x00, 0x07, 0x00, 0x10, 0x00, 0x0e, 0x00, 0x00, 0x00,
  0x00, 0x00, 0x00, 0x08, 0x24, 0x00, 0x00, 0x00, 0x18, 0x00, 0x00, 0x00,
  0x0c, 0x00, 0x00, 0x00, 0x00, 0x00, 0x06, 0x00, 0x08, 0x00, 0x07, 0x00,
  0x06, 0x00, 0x00, 0x00, 0x00, 0x00, 0x00, 0x01, 0x01, 0x00, 0x00, 0x00,
  0x04, 0x00, 0x00, 0x00, 0x03, 0x00, 0x00, 0x00, 0x01, 0x00, 0x00, 0x00,
  0x02, 0x00, 0x00, 0x00, 0x03, 0x00, 0x00, 0x00, 0x00, 0x00, 0x0a, 0x00,
  0x10, 0x00, 0x04, 0x00, 0x08, 0x00, 0x0c, 0x00, 0x0a, 0x00, 0x00, 0x00,
  0x01, 0x00, 0x00, 0x00, 0x10, 0x00, 0x00, 0x00, 0x04, 0x00, 0x00, 0x00,
  0x01, 0x00, 0x00, 0x00, 0x01, 0x00, 0x00, 0x00, 0x01, 0x00, 0x00, 0x00,
  0x0a, 0x00, 0x00, 0x00, 0x01, 0x00, 0x00, 0x00, 0x0b, 0x00, 0x00, 0x00,
  0x01, 0x00, 0x00, 0x00, 0x0a, 0x00, 0x00, 0x00, 0x0c, 0x00, 0x00, 0x00,
  0x10, 0x05, 0x00, 0x00, 0x88, 0x04, 0x00, 0x00, 0xec, 0x03, 0x00, 0x00,
  0x74, 0x03, 0x00, 0x00, 0xf4, 0x02, 0x00, 0x00, 0x58, 0x02, 0x00, 0x00,
  0xec, 0x01, 0x00, 0x00, 0x70, 0x01, 0x00, 0x00, 0xd4, 0x00, 0x00, 0x00,
  0x68, 0x00, 0x00, 0x00, 0x3c, 0x00, 0x00, 0x00, 0x04, 0x00, 0x00, 0x00,
  0xd8, 0xff, 0xff, 0xff, 0x18, 0x00, 0x00, 0x00, 0x04, 0x00, 0x00, 0x00,
  0x08, 0x00, 0x00, 0x00, 0x49, 0x64, 0x65, 0x6e, 0x74, 0x69, 0x74, 0x79,
  0x00, 0x00, 0x00, 0x00, 0x02, 0x00, 0x00, 0x00, 0x01, 0x00, 0x00, 0x00,
  0x01, 0x00, 0x00, 0x00, 0x0c, 0x00, 0x0c, 0x00, 0x04, 0x00, 0x00, 0x00,
  0x00, 0x00, 0x08, 0x00, 0x0c, 0x00, 0x00, 0x00, 0x18, 0x00, 0x00, 0x00,
  0x04, 0x00, 0x00, 0x00, 0x0b, 0x00, 0x00, 0x00, 0x64, 0x65, 0x6e, 0x73,
  0x65, 0x5f, 0x69, 0x6e, 0x70, 0x75, 0x74, 0x00, 0x02, 0x00, 0x00, 0x00,
  0x01, 0x00, 0x00, 0x00, 0x01, 0x00, 0x00, 0x00, 0x8a, 0xfb, 0xff, 0xff,
  0x00, 0x00, 0x00, 0x02, 0x58, 0x00, 0x00, 0x00, 0x0a, 0x00, 0x00, 0x00,
  0x2c, 0x00, 0x00, 0x00, 0x04, 0x00, 0x00, 0x00, 0x0c, 0xfd, 0xff, 0xff,
  0x18, 0x00, 0x00, 0x00, 0x04, 0x00, 0x00, 0x00, 0x01, 0x00, 0x00, 0x00,
  0x00, 0x00, 0x00, 0x00, 0x00, 0x00, 0x00, 0x00, 0x00, 0x00, 0x00, 0x00,
  0x01, 0x00, 0x00, 0x00, 0x77, 0x02, 0x06, 0x38, 0x1e, 0x00, 0x00, 0x00,
  0x73, 0x65, 0x71, 0x75, 0x65, 0x6e, 0x74, 0x69, 0x61, 0x6c, 0x2f, 0x64,
  0x65, 0x6e, 0x73, 0x65, 0x5f, 0x32, 0x2f, 0x4d, 0x61, 0x74, 0x4d, 0x75,
  0x6c, 0x5f, 0x62, 0x69, 0x61, 0x73, 0x00, 0x00, 0x01, 0x00, 0x00, 0x00,
  0x01, 0x00, 0x00, 0x00, 0xf2, 0xfb, 0xff, 0xff, 0x00, 0x00, 0x00, 0x09,
  0x84, 0x00, 0x00, 0x00, 0x09, 0x00, 0x00, 0x00, 0x44, 0x00, 0x00, 0x00,
  0x04, 0x00, 0x00, 0x00, 0xe4, 0xfb, 0xff, 0xff, 0x30, 0x00, 0x00, 0x00,
  0x24, 0x00, 0x00, 0x00, 0x18, 0x00, 0x00, 0x00, 0x04, 0x00, 0x00, 0x00,
  0x01, 0x00, 0x00, 0x00, 0x00, 0x00, 0x00, 0x00, 0x00, 0x00, 0x00, 0x00,
  0x00, 0x00, 0x00, 0x00, 0x01, 0x00, 0x00, 0x00, 0x95, 0xc7, 0xf6, 0x3b,
  0x01, 0x00, 0x00, 0x00, 0x06, 0xda, 0x74, 0x3f, 0x01, 0x00, 0x00, 0x00,
  0xdb, 0x15, 0x0c, 0xbf, 0x32, 0x00, 0x00, 0x00, 0x73, 0x65, 0x71, 0x75,
  0x65, 0x6e, 0x74, 0x69, 0x61, 0x6c, 0x2f, 0x64, 0x65, 0x6e, 0x73, 0x65,
  0x5f, 0x32, 0x2f, 0x4d, 0x61, 0x74, 0x4d, 0x75, 0x6c, 0x2f, 0x52, 0x65,
  0x61, 0x64, 0x56, 0x61, 0x72, 0x69, 0x61, 0x62, 0x6c, 0x65, 0x4f, 0x70,
  0x2f, 0x74, 0x72, 0x61, 0x6e, 0x73, 0x70, 0x6f, 0x73, 0x65, 0x00, 0x00,
  0x02, 0x00, 0x00, 0x00, 0x01, 0x00, 0x00, 0x00, 0x10, 0x00, 0x00, 0x00,
  0x8a, 0xfc, 0xff, 0xff, 0x00, 0x00, 0x00, 0x09, 0x64, 0x00, 0x00, 0x00,
  0x04, 0x00, 0x00, 0x00, 0x40, 0x00, 0x00, 0x00, 0x04, 0x00, 0x00, 0x00,
  0x7c, 0xfc, 0xff, 0xff, 0x2c, 0x00, 0x00, 0x00, 0x20, 0x00, 0x00, 0x00,
  0x14, 0x00, 0x00, 0x00, 0x04, 0x00, 0x00, 0x00, 0x01, 0x00, 0x00, 0x00,
  0x80, 0xff, 0xff, 0xff, 0xff, 0xff, 0xff, 0xff, 0x01, 0x00, 0x00, 0x00,
  0x40, 0x04, 0x8b, 0x3b, 0x01, 0x00, 0x00, 0x00, 0x3c, 0x79, 0x8a, 0x3f,
  0x01, 0x00, 0x00, 0x00, 0x00, 0x00, 0x00, 0x00, 0x17, 0x00, 0x00, 0x00,
  0x73, 0x65, 0x71, 0x75, 0x65, 0x6e, 0x74, 0x69, 0x61, 0x6c, 0x2f, 0x64,
  0x65, 0x6e, 0x73, 0x65, 0x5f, 0x31, 0x2f, 0x52, 0x65, 0x6c, 0x75, 0x00,
  0x02, 0x00, 0x00, 0x00, 0x01, 0x00, 0x00, 0x00, 0x10, 0x00, 0x00, 0x00,
  0x02, 0xfd, 0xff, 0xff, 0x00, 0x00, 0x00, 0x02, 0x58, 0x00, 0x00, 0x00,
  0x08, 0x00, 0x00, 0x00, 0x2c, 0x00, 0x00, 0x00, 0x04, 0x00, 0x00, 0x00,
  0x84, 0xfe, 0xff, 0xff, 0x18, 0x00, 0x00, 0x00, 0x04, 0x00, 0x00, 0x00,
  0x01, 0x00, 0x00, 0x00, 0x00, 0x00, 0x00, 0x00, 0x00, 0x00, 0x00, 0x00,
  0x00, 0x00, 0x00, 0x00, 0x01, 0x00, 0x00, 0x00, 0x9f, 0xa8, 0x49, 0x38,
  0x1e, 0x00, 0x00, 0x00, 0x73, 0x65, 0x71, 0x75, 0x65, 0x6e, 0x74, 0x69,
  0x61, 0x6c, 0x2f, 0x64, 0x65, 0x6e, 0x73, 0x65, 0x5f, 0x31, 0x2f, 0x4d,
  0x61, 0x74, 0x4d, 0x75, 0x6c, 0x5f, 0x62, 0x69, 0x61, 0x73, 0x00, 0x00,
  0x01, 0x00, 0x00, 0x00, 0x10, 0x00, 0x00, 0x00, 0x6a, 0xfd, 0xff, 0xff,
  0x00, 0x00, 0x00, 0x09, 0x84, 0x00, 0x00, 0x00, 0x02, 0x00, 0x00, 0x00,
  0x44, 0x00, 0x00, 0x00, 0x04, 0x00, 0x00, 0x00, 0x5c, 0xfd, 0xff, 0xff,
  0x30, 0x00, 0x00, 0x00, 0x24, 0x00, 0x00, 0x00, 0x18, 0x00, 0x00, 0x00,
  0x04, 0x00, 0x00, 0x00, 0x01, 0x00, 0x00, 0x00, 0x00, 0x00, 0x00, 0x00,
  0x00, 0x00, 0x00, 0x00, 0x00, 0x00, 0x00, 0x00, 0x01, 0x00, 0x00, 0x00,
  0x9a, 0x94, 0x52, 0x3c, 0x01, 0x00, 0x00, 0x00, 0x71, 0xef, 0xd0, 0x3f,
  0x01, 0x00, 0x00, 0x00, 0x9c, 0x8c, 0xcd, 0xbf, 0x32, 0x00, 0x00, 0x00,
  0x73, 0x65, 0x71, 0x75, 0x65, 0x6e, 0x74, 0x69, 0x61, 0x6c, 0x2f, 0x64,
  0x65, 0x6e, 0x73, 0x65, 0x5f, 0x31, 0x2f, 0x4d, 0x61, 0x74, 0x4d, 0x75,
  0x6c, 0x2f, 0x52, 0x65, 0x61, 0x64, 0x56, 0x61, 0x72, 0x69, 0x61, 0x62,
  0x6c, 0x65, 0x4f, 0x70, 0x2f, 0x74, 0x72, 0x61, 0x6e, 0x73, 0x70, 0x6f,
  0x73, 0x65, 0x00, 0x00, 0x02, 0x00, 0x00, 0x00, 0x10, 0x00, 0x00, 0x00,
  0x20, 0x00, 0x00, 0x00, 0x02, 0xfe, 0xff, 0xff, 0x00, 0x00, 0x00, 0x09,
  0x68, 0x00, 0x00, 0x00, 0x03, 0x00, 0x00, 0x00, 0x44, 0x00, 0x00, 0x00,
  0x04, 0x00, 0x00, 0x00, 0xf4, 0xfd, 0xff, 0xff, 0x30, 0x00, 0x00, 0x00,
  0x24, 0x00, 0x00, 0x00, 0x18, 0x00, 0x00, 0x00, 0x04, 0x00, 0x00, 0x00,
  0x01, 0x00, 0x00, 0x00, 0x80, 0xff, 0xff, 0xff, 0xff, 0xff, 0xff, 0xff,
  0x00, 0x00, 0x00, 0x00, 0x01, 0x00, 0x00, 0x00, 0x65, 0x27, 0x75, 0x3b,
  0x01, 0x00, 0x00, 0x00, 0x3e, 0x32, 0x74, 0x3f, 0x01, 0x00, 0x00, 0x00,
  0x00, 0x00, 0x00, 0x00, 0x15, 0x00, 0x00, 0x00, 0x73, 0x65, 0x71, 0x75,
  0x65, 0x6e, 0x74, 0x69, 0x61, 0x6c, 0x2f, 0x64, 0x65, 0x6e, 0x73, 0x65,
  0x2f, 0x52, 0x65, 0x6c, 0x75, 0x00, 0x00, 0x00, 0x02, 0x00, 0x00, 0x00,
  0x01, 0x00, 0x00, 0x00, 0x20, 0x00, 0x00, 0x00, 0x7e, 0xfe, 0xff, 0xff,
  0x00, 0x00, 0x00, 0x02, 0x64, 0x00, 0x00, 0x00, 0x07, 0x00, 0x00, 0x00,
  0x38, 0x00, 0x00, 0x00, 0x10, 0x00, 0x00, 0x00, 0x0c, 0x00, 0x0c, 0x00,
  0x00, 0x00, 0x00, 0x00, 0x04, 0x00, 0x08, 0x00, 0x0c, 0x00, 0x00, 0x00,
  0x18, 0x00, 0x00, 0x00, 0x04, 0x00, 0x00, 0x00, 0x01, 0x00, 0x00, 0x00,
  0x00, 0x00, 0x00, 0x00, 0x00, 0x00, 0x00, 0x00, 0x00, 0x00, 0x00, 0x00,
  0x01, 0x00, 0x00, 0x00, 0xa5, 0xfb, 0xd3, 0x37, 0x1c, 0x00, 0x00, 0x00,
  0x73, 0x65, 0x71, 0x75, 0x65, 0x6e, 0x74, 0x69, 0x61, 0x6c, 0x2f, 0x64,
  0x65, 0x6e, 0x73, 0x65, 0x2f, 0x4d, 0x61, 0x74, 0x4d, 0x75, 0x6c, 0x5f,
  0x62, 0x69, 0x61, 0x73, 0x00, 0x00, 0x00, 0x00, 0x01, 0x00, 0x00, 0x00,
  0x20, 0x00, 0x00, 0x00, 0xf2, 0xfe, 0xff, 0xff, 0x00, 0x00, 0x00, 0x09,
  0x84, 0x00, 0x00, 0x00, 0x06, 0x00, 0x00, 0x00, 0x44, 0x00, 0x00, 0x00,
  0x04, 0x00, 0x00, 0x00, 0xe4, 0xfe, 0xff, 0xff, 0x30, 0x00, 0x00, 0x00,
  0x24, 0x00, 0x00, 0x00, 0x18, 0x00, 0x00, 0x00, 0x04, 0x00, 0x00, 0x00,
  0x01, 0x00, 0x00, 0x00, 0x00, 0x00, 0x00, 0x00, 0x00, 0x00, 0x00, 0x00,
  0x00, 0x00, 0x00, 0x00, 0x01, 0x00, 0x00, 0x00, 0xa9, 0x17, 0xd2, 0x3b,
  0x01, 0x00, 0x00, 0x00, 0x7a, 0x73, 0x50, 0x3f, 0x01, 0x00, 0x00, 0x00,
  0x7a, 0x52, 0xc8, 0xbe, 0x30, 0x00, 0x00, 0x00, 0x73, 0x65, 0x71, 0x75,
  0x65, 0x6e, 0x74, 0x69, 0x61, 0x6c, 0x2f, 0x64, 0x65, 0x6e, 0x73, 0x65,
  0x2f, 0x4d, 0x61, 0x74, 0x4d, 0x75, 0x6c, 0x2f, 0x52, 0x65, 0x61, 0x64,
  0x56, 0x61, 0x72, 0x69, 0x61, 0x62, 0x6c, 0x65, 0x4f, 0x70, 0x2f, 0x74,
  0x72, 0x61, 0x6e, 0x73, 0x70, 0x6f, 0x73, 0x65, 0x00, 0x00, 0x00, 0x00,
  0x02, 0x00, 0x00, 0x00, 0x20, 0x00, 0x00, 0x00, 0x01, 0x00, 0x00, 0x00,
  0x8a, 0xff, 0xff, 0xff, 0x00, 0x00, 0x00, 0x09, 0x60, 0x00, 0x00, 0x00,
  0x01, 0x00, 0x00, 0x00, 0x40, 0x00, 0x00, 0x00, 0x04, 0x00, 0x00, 0x00,
  0x7c, 0xff, 0xff, 0xff, 0x2c, 0x00, 0x00, 0x00, 0x20, 0x00, 0x00, 0x00,
  0x14, 0x00, 0x00, 0x00, 0x04, 0x00, 0x00, 0x00, 0x01, 0x00, 0x00, 0x00,
  0x80, 0xff, 0xff, 0xff, 0xff, 0xff, 0xff, 0xff, 0x01, 0x00, 0x00, 0x00,
  0xdf, 0x26, 0x81, 0x3b, 0x01, 0x00, 0x00, 0x00, 0xb8, 0xa5, 0x80, 0x3f,
  0x01, 0x00, 0x00, 0x00, 0x00, 0x00, 0x00, 0x00, 0x10, 0x00, 0x00, 0x00,
  0x64, 0x65, 0x6e, 0x73, 0x65, 0x5f, 0x69, 0x6e, 0x70, 0x75, 0x74, 0x5f,
  0x69, 0x6e, 0x74, 0x38, 0x00, 0x00, 0x00, 0x00, 0x02, 0x00, 0x00, 0x00,
  0x01, 0x00, 0x00, 0x00, 0x01, 0x00, 0x00, 0x00, 0x00, 0x00, 0x0e, 0x00,
  0x18, 0x00, 0x08, 0x00, 0x07, 0x00, 0x0c, 0x00, 0x10, 0x00, 0x14, 0x00,
  0x0e, 0x00, 0x00, 0x00, 0x00, 0x00, 0x00, 0x09, 0x6c, 0x00, 0x00, 0x00,
  0x05, 0x00, 0x00, 0x00, 0x50, 0x00, 0x00, 0x00, 0x10, 0x00, 0x00, 0x00,
  0x0c, 0x00, 0x14, 0x00, 0x04, 0x00, 0x08, 0x00, 0x0c, 0x00, 0x10, 0x00,
  0x0c, 0x00, 0x00, 0x00, 0x30, 0x00, 0x00, 0x00, 0x24, 0x00, 0x00, 0x00,
  0x18, 0x00, 0x00, 0x00, 0x04, 0x00, 0x00, 0x00, 0x01, 0x00, 0x00, 0x00,
  0x80, 0xff, 0xff, 0xff, 0xff, 0xff, 0xff, 0xff, 0x00, 0x00, 0x00, 0x00,
  0x01, 0x00, 0x00, 0x00, 0xcc, 0xb1, 0x81, 0x3b, 0x01, 0x00, 0x00, 0x00,
  0x86, 0x1f, 0x81, 0x3f, 0x01, 0x00, 0x00, 0x00, 0xc0, 0xa3, 0x04, 0xba,
  0x0d, 0x00, 0x00, 0x00, 0x49, 0x64, 0x65, 0x6e, 0x74, 0x69, 0x74, 0x79,
  0x5f, 0x69, 0x6e, 0x74, 0x38, 0x00, 0x00, 0x00, 0x02, 0x00, 0x00, 0x00,
  0x01, 0x00, 0x00, 0x00, 0x01, 0x00, 0x00, 0x00, 0x03, 0x00, 0x00, 0x00,
  0x3c, 0x00, 0x00, 0x00, 0x28, 0x00, 0x00, 0x00, 0x10, 0x00, 0x00, 0x00,
  0x00, 0x00, 0x0a, 0x00, 0x0e, 0x00, 0x07, 0x00, 0x00, 0x00, 0x08, 0x00,
  0x0a, 0x00, 0x00, 0x00, 0x00, 0x00, 0x00, 0x06, 0x02, 0x00, 0x00, 0x00,
  0x00, 0x00, 0x06, 0x00, 0x06, 0x00, 0x05, 0x00, 0x06, 0x00, 0x00, 0x00,
  0x00, 0x72, 0x0a, 0x00, 0x0c, 0x00, 0x07, 0x00, 0x00, 0x00, 0x08, 0x00,
  0x0a, 0x00, 0x00, 0x00, 0x00, 0x00, 0x00, 0x09, 0x04, 0x00, 0x00, 0x00
};
unsigned int model_tflite_len = 2904;
